unsigned char model_xcore_tflite[] = {
  0x1c, 0x00, 0x00, 0x00, 0x54, 0x46, 0x4c, 0x33, 0x00, 0x00, 0x12, 0x00,
  0x1c, 0x00, 0x04, 0x00, 0x08, 0x00, 0x0c, 0x00, 0x10, 0x00, 0x14, 0x00,
  0x00, 0x00, 0x18, 0x00, 0x12, 0x00, 0x00, 0x00, 0x03, 0x00, 0x00, 0x00,
  0x7c, 0x04, 0x00, 0x00, 0x6c, 0x01, 0x00, 0x00, 0x4c, 0x01, 0x00, 0x00,
  0x3c, 0x00, 0x00, 0x00, 0x04, 0x00, 0x00, 0x00, 0x01, 0x00, 0x00, 0x00,
  0x0c, 0x00, 0x00, 0x00, 0x08, 0x00, 0x0c, 0x00, 0x04, 0x00, 0x08, 0x00,
  0x08, 0x00, 0x00, 0x00, 0x08, 0x00, 0x00, 0x00, 0x04, 0x00, 0x00, 0x00,
  0x13, 0x00, 0x00, 0x00, 0x6d, 0x69, 0x6e, 0x5f, 0x72, 0x75, 0x6e, 0x74,
  0x69, 0x6d, 0x65, 0x5f, 0x76, 0x65, 0x72, 0x73, 0x69, 0x6f, 0x6e, 0x00,
  0x06, 0x00, 0x00, 0x00, 0xec, 0x00, 0x00, 0x00, 0xdc, 0x00, 0x00, 0x00,
  0x48, 0x00, 0x00, 0x00, 0x40, 0x00, 0x00, 0x00, 0x24, 0x00, 0x00, 0x00,
  0x04, 0x00, 0x00, 0x00, 0x32, 0xff, 0xff, 0xff, 0x04, 0x00, 0x00, 0x00,
  0x10, 0x00, 0x00, 0x00, 0x03, 0x00, 0x03, 0x00, 0x03, 0x00, 0x03, 0x00,
  0x33, 0x7d, 0x33, 0x7d, 0x33, 0x7d, 0x33, 0x7d, 0x4e, 0xff, 0xff, 0xff,
  0x04, 0x00, 0x00, 0x00, 0x05, 0x00, 0x00, 0x00, 0x31, 0x2e, 0x35, 0x2e,
  0x30, 0x00, 0x00, 0x00, 0x04, 0x00, 0x04, 0x00, 0x04, 0x00, 0x00, 0x00,
  0x6a, 0xff, 0xff, 0xff, 0x04, 0x00, 0x00, 0x00, 0x80, 0x00, 0x00, 0x00,
  0xa4, 0xc4, 0xb6, 0xac, 0xb4, 0xca, 0xbc, 0xb4, 0xbc, 0xb9, 0x8b, 0xb5,
  0x86, 0xa9, 0xa6, 0xc3, 0xb5, 0xc4, 0x97, 0xaf, 0xb4, 0xbd, 0xbc, 0x9d,
  0xc1, 0xb8, 0xaa, 0xbf, 0xad, 0xba, 0xa3, 0xc6, 0xd0, 0xf0, 0xe0, 0xd8,
  0xe1, 0xf5, 0xe4, 0xdc, 0xe6, 0xe4, 0xbf, 0xe3, 0xb9, 0xdc, 0xe0, 0xf6,
  0xec, 0xf6, 0xc9, 0xe1, 0xe5, 0xf1, 0xe9, 0xc8, 0xeb, 0xe4, 0xd2, 0xe5,
  0xda, 0xe3, 0xcd, 0xee, 0x1b, 0x2c, 0x28, 0x2a, 0x30, 0x40, 0x3c, 0x36,
  0x4a, 0x3e, 0x18, 0x45, 0x13, 0x2c, 0x33, 0x4d, 0x3a, 0x3f, 0x1b, 0x44,
  0x37, 0x52, 0x48, 0x32, 0x44, 0x42, 0x19, 0x2b, 0x24, 0x2c, 0x1d, 0x2b,
  0x44, 0x51, 0x4d, 0x57, 0x5e, 0x76, 0x76, 0x6a, 0x7f, 0x70, 0x45, 0x73,
  0x3f, 0x55, 0x5b, 0x77, 0x63, 0x68, 0x44, 0x6d, 0x5e, 0x7d, 0x77, 0x67,
  0x7b, 0x79, 0x4f, 0x5d, 0x54, 0x54, 0x42, 0x4a, 0x04, 0x00, 0x06, 0x00,
  0x04, 0x00, 0x00, 0x00, 0x00, 0x00, 0x06, 0x00, 0x08, 0x00, 0x04, 0x00,
  0x06, 0x00, 0x00, 0x00, 0x04, 0x00, 0x00, 0x00, 0x10, 0x00, 0x00, 0x00,
  0x4c, 0xe3, 0xff, 0xff, 0x5b, 0x5c, 0x00, 0x00, 0x6c, 0x7b, 0x00, 0x00,
  0xf0, 0x24, 0x00, 0x00, 0x16, 0x00, 0x00, 0x00, 0x54, 0x4f, 0x43, 0x4f,
  0x20, 0x2b, 0x20, 0x58, 0x4d, 0x4f, 0x53, 0x20, 0x63, 0x6f, 0x6e, 0x76,
  0x65, 0x72, 0x74, 0x65, 0x64, 0x2e, 0x00, 0x00, 0x01, 0x00, 0x00, 0x00,
  0x04, 0x00, 0x00, 0x00, 0x70, 0xfd, 0xff, 0xff, 0x5c, 0x00, 0x00, 0x00,
  0x50, 0x00, 0x00, 0x00, 0x44, 0x00, 0x00, 0x00, 0x04, 0x00, 0x00, 0x00,
  0x01, 0x00, 0x00, 0x00, 0x10, 0x00, 0x00, 0x00, 0x00, 0x00, 0x0a, 0x00,
  0x0c, 0x00, 0x00, 0x00, 0x04, 0x00, 0x08, 0x00, 0x0a, 0x00, 0x00, 0x00,
  0x10, 0x00, 0x00, 0x00, 0x04, 0x00, 0x00, 0x00, 0x01, 0x00, 0x00, 0x00,
  0x01, 0x00, 0x00, 0x00, 0x04, 0x00, 0x00, 0x00, 0x00, 0x00, 0x00, 0x00,
  0x02, 0x00, 0x00, 0x00, 0x03, 0x00, 0x00, 0x00, 0x04, 0x00, 0x00, 0x00,
  0x01, 0x00, 0x00, 0x00, 0x01, 0x00, 0x00, 0x00, 0x01, 0x00, 0x00, 0x00,
  0x00, 0x00, 0x00, 0x00, 0x05, 0x00, 0x00, 0x00, 0x14, 0x02, 0x00, 0x00,
  0x78, 0x01, 0x00, 0x00, 0xe4, 0x00, 0x00, 0x00, 0x74, 0x00, 0x00, 0x00,
  0x10, 0x00, 0x00, 0x00, 0x0c, 0x00, 0x14, 0x00, 0x08, 0x00, 0x07, 0x00,
  0x0c, 0x00, 0x10, 0x00, 0x0c, 0x00, 0x00, 0x00, 0x00, 0x00, 0x00, 0x07,
  0x3c, 0x00, 0x00, 0x00, 0x05, 0x00, 0x00, 0x00, 0x04, 0x00, 0x00, 0x00,
  0x29, 0x00, 0x00, 0x00, 0x58, 0x43, 0x5f, 0x66, 0x63, 0x5f, 0x64, 0x65,
  0x65, 0x70, 0x69, 0x6e, 0x5f, 0x73, 0x68, 0x61, 0x6c, 0x6c, 0x6f, 0x77,
  0x6f, 0x75, 0x74, 0x5f, 0x66, 0x69, 0x6e, 0x61, 0x6c, 0x2f, 0x73, 0x68,
  0x69, 0x66, 0x74, 0x5f, 0x73, 0x63, 0x61, 0x6c, 0x65, 0x00, 0x00, 0x00,
  0x02, 0x00, 0x00, 0x00, 0x02, 0x00, 0x00, 0x00, 0x04, 0x00, 0x00, 0x00,
  0x00, 0x00, 0x0e, 0x00, 0x14, 0x00, 0x08, 0x00, 0x07, 0x00, 0x00, 0x00,
  0x0c, 0x00, 0x10, 0x00, 0x0e, 0x00, 0x00, 0x00, 0x00, 0x00, 0x00, 0x02,
  0x5c, 0x00, 0x00, 0x00, 0x2c, 0x00, 0x00, 0x00, 0x04, 0x00, 0x00, 0x00,
  0xfe, 0xfe, 0xff, 0xff, 0x00, 0x00, 0x00, 0x01, 0x14, 0x00, 0x00, 0x00,
  0x04, 0x00, 0x00, 0x00, 0x01, 0x00, 0x00, 0x00, 0x00, 0x00, 0x00, 0x00,
  0x00, 0x00, 0x00, 0x00, 0x01, 0x00, 0x00, 0x00, 0x9a, 0x68, 0x8f, 0x39,
  0x24, 0x00, 0x00, 0x00, 0x58, 0x43, 0x5f, 0x66, 0x63, 0x5f, 0x64, 0x65,
  0x65, 0x70, 0x69, 0x6e, 0x5f, 0x73, 0x68, 0x61, 0x6c, 0x6c, 0x6f, 0x77,
  0x6f, 0x75, 0x74, 0x5f, 0x66, 0x69, 0x6e, 0x61, 0x6c, 0x2f, 0x62, 0x69,
  0x61, 0x73, 0x65, 0x73, 0x00, 0x00, 0x00, 0x00, 0x01, 0x00, 0x00, 0x00,
  0x04, 0x00, 0x00, 0x00, 0xe6, 0xfe, 0xff, 0xff, 0x00, 0x00, 0x00, 0x09,
  0x6c, 0x00, 0x00, 0x00, 0x02, 0x00, 0x00, 0x00, 0x38, 0x00, 0x00, 0x00,
  0x10, 0x00, 0x00, 0x00, 0x0c, 0x00, 0x0c, 0x00, 0x00, 0x00, 0x00, 0x00,
  0x04, 0x00, 0x08, 0x00, 0x0c, 0x00, 0x00, 0x00, 0x18, 0x00, 0x00, 0x00,
  0x04, 0x00, 0x00, 0x00, 0x01, 0x00, 0x00, 0x00, 0x00, 0x00, 0x00, 0x00,
  0x00, 0x00, 0x00, 0x00, 0x00, 0x00, 0x00, 0x00, 0x01, 0x00, 0x00, 0x00,
  0x44, 0xee, 0x02, 0x3c, 0x25, 0x00, 0x00, 0x00, 0x58, 0x43, 0x5f, 0x66,
  0x63, 0x5f, 0x64, 0x65, 0x65, 0x70, 0x69, 0x6e, 0x5f, 0x73, 0x68, 0x61,
  0x6c, 0x6c, 0x6f, 0x77, 0x6f, 0x75, 0x74, 0x5f, 0x66, 0x69, 0x6e, 0x61,
  0x6c, 0x2f, 0x77, 0x65, 0x69, 0x67, 0x68, 0x74, 0x73, 0x00, 0x00, 0x00,
  0x02, 0x00, 0x00, 0x00, 0x04, 0x00, 0x00, 0x00, 0x20, 0x00, 0x00, 0x00,
  0x00, 0x00, 0x0e, 0x00, 0x1a, 0x00, 0x08, 0x00, 0x07, 0x00, 0x0c, 0x00,
  0x10, 0x00, 0x14, 0x00, 0x0e, 0x00, 0x00, 0x00, 0x00, 0x00, 0x00, 0x07,
  0x74, 0x00, 0x00, 0x00, 0x01, 0x00, 0x00, 0x00, 0x40, 0x00, 0x00, 0x00,
  0x14, 0x00, 0x00, 0x00, 0x00, 0x00, 0x0e, 0x00, 0x10, 0x00, 0x00, 0x00,
  0x00, 0x00, 0x08, 0x00, 0x0c, 0x00, 0x07, 0x00, 0x0e, 0x00, 0x00, 0x00,
  0x00, 0x00, 0x00, 0x01, 0x18, 0x00, 0x00, 0x00, 0x04, 0x00, 0x00, 0x00,
  0x01, 0x00, 0x00, 0x00, 0x00, 0x0d, 0x00, 0x00, 0x00, 0x00, 0x00, 0x00,
  0x00, 0x00, 0x00, 0x00, 0x01, 0x00, 0x00, 0x00, 0xa9, 0x9d, 0x92, 0x3a,
  0x24, 0x00, 0x00, 0x00, 0x58, 0x43, 0x5f, 0x66, 0x63, 0x5f, 0x64, 0x65,
  0x65, 0x70, 0x69, 0x6e, 0x5f, 0x73, 0x68, 0x61, 0x6c, 0x6c, 0x6f, 0x77,
  0x6f, 0x75, 0x74, 0x5f, 0x66, 0x69, 0x6e, 0x61, 0x6c, 0x2f, 0x6f, 0x75,
  0x74, 0x70, 0x75, 0x74, 0x00, 0x00, 0x00, 0x00, 0x02, 0x00, 0x00, 0x00,
  0x01, 0x00, 0x00, 0x00, 0x04, 0x00, 0x00, 0x00, 0x00, 0x00, 0x0e, 0x00,
  0x18, 0x00, 0x08, 0x00, 0x07, 0x00, 0x0c, 0x00, 0x10, 0x00, 0x14, 0x00,
  0x0e, 0x00, 0x00, 0x00, 0x00, 0x00, 0x00, 0x09, 0x70, 0x00, 0x00, 0x00,
  0x03, 0x00, 0x00, 0x00, 0x50, 0x00, 0x00, 0x00, 0x10, 0x00, 0x00, 0x00,
  0x0c, 0x00, 0x14, 0x00, 0x04, 0x00, 0x08, 0x00, 0x0c, 0x00, 0x10, 0x00,
  0x0c, 0x00, 0x00, 0x00, 0x30, 0x00, 0x00, 0x00, 0x24, 0x00, 0x00, 0x00,
  0x18, 0x00, 0x00, 0x00, 0x04, 0x00, 0x00, 0x00, 0x01, 0x00, 0x00, 0x00,
  0xfd, 0xff, 0xff, 0xff, 0xff, 0xff, 0xff, 0xff, 0x00, 0x00, 0x00, 0x00,
  0x01, 0x00, 0x00, 0x00, 0xd4, 0x32, 0x0c, 0x3d, 0x01, 0x00, 0x00, 0x00,
  0x18, 0xdc, 0x8d, 0x40, 0x01, 0x00, 0x00, 0x00, 0x2c, 0x71, 0x89, 0xc0,
  0x12, 0x00, 0x00, 0x00, 0x66, 0x6c, 0x61, 0x74, 0x74, 0x65, 0x6e, 0x5f,
  0x69, 0x6e, 0x70, 0x75, 0x74, 0x5f, 0x69, 0x6e, 0x74, 0x38, 0x00, 0x00,
  0x04, 0x00, 0x00, 0x00, 0x01, 0x00, 0x00, 0x00, 0x20, 0x00, 0x00, 0x00,
  0x01, 0x00, 0x00, 0x00, 0x01, 0x00, 0x00, 0x00, 0x01, 0x00, 0x00, 0x00,
  0x0c, 0x00, 0x00, 0x00, 0x08, 0x00, 0x0c, 0x00, 0x07, 0x00, 0x08, 0x00,
  0x08, 0x00, 0x00, 0x00, 0x00, 0x00, 0x00, 0x20, 0x04, 0x00, 0x00, 0x00,
  0x1d, 0x00, 0x00, 0x00, 0x58, 0x43, 0x5f, 0x66, 0x63, 0x5f, 0x64, 0x65,
  0x65, 0x70, 0x69, 0x6e, 0x5f, 0x73, 0x68, 0x61, 0x6c, 0x6c, 0x6f, 0x77,
  0x6f, 0x75, 0x74, 0x5f, 0x66, 0x69, 0x6e, 0x61, 0x6c, 0x00, 0x00, 0x00
};
unsigned int model_xcore_tflite_len = 1248;
